/*
 * demo_weights.h — Auto-generated HDC model weights
 *
 * Generated: 2026-02-22 04:36:42
 * Features:  10
 * HD Dim:    64
 * Classes:   3
 * Encoding:  nonlinear (cos)
 * Quantized: yes (4-bit)
 */

#ifndef HDC_MODEL_DEMO_H
#define HDC_MODEL_DEMO_H

#include <stdint.h>

/* ─── Model metadata ───────────────────────────────────────────── */

#define DEMO_N_FEATURES  10
#define DEMO_HD_DIM      64
#define DEMO_N_CLASSES    3
#define DEMO_NONLINEAR    1

/* ─── Float32 weights ──────────────────────────────────────────── */

/* Encoding matrix W [10 x 64] */
static const float demo_weights[640] = {
     0.24835707f, -0.06913215f,  0.32384428f,  0.76151490f, -0.11707669f, -0.11706848f,  0.78960639f,  0.38371736f,
    -0.23473719f,  0.27128002f, -0.23170884f, -0.23286487f,  0.12098113f, -0.95664012f, -0.86245894f, -0.28114375f,
    -0.50641555f,  0.15712367f, -0.45401204f, -0.70615184f,  0.73282439f, -0.11288815f,  0.03376410f, -0.71237409f,
    -0.27219138f,  0.05546129f, -0.57549679f,  0.18784901f, -0.30031934f, -0.14584687f, -0.30085331f,  0.92613912f,
    -0.00674861f, -0.52885544f,  0.41127247f, -0.61042184f,  0.10443180f, -0.97983503f, -0.66409302f,  0.09843062f,
     0.36923328f,  0.08568414f, -0.05782414f, -0.15055184f, -0.73926097f, -0.35992211f, -0.23031938f,  0.52856112f,
     0.17180915f, -0.88152009f,  0.16204199f, -0.19254114f, -0.33846101f,  0.30583814f,  0.51549977f,  0.46564007f,
    -0.41960877f, -0.15460619f,  0.16563171f,  0.48777255f, -0.23958711f, -0.09282949f, -0.55316746f, -0.59810328f,
     0.40626290f,  0.67812002f, -0.03600506f,  0.50176644f,  0.18081801f, -0.32255986f,  0.18069780f,  0.76901829f,
    -0.01791302f,  0.78232181f, -1.30987251f,  0.41095126f,  0.04352354f, -0.14950368f,  0.04588039f, -0.99378443f,
    -0.10983595f,  0.17855628f,  0.73894703f, -0.25913510f, -0.40424681f, -0.25087851f,  0.45770106f,  0.16437556f,
    -0.26488009f,  0.25663373f,  0.04853877f,  0.48432249f, -0.35102654f, -0.16383107f, -0.19605407f, -0.73175746f,
     0.14806014f,  0.13052763f,  0.00255673f, -0.11729357f, -0.70768535f, -0.21032266f, -0.17135726f, -0.40113863f,
    -0.08064286f,  0.20202543f,  0.94309294f,  0.08728891f,  0.12877519f, -0.03722296f, -0.95938563f, -0.01325694f,
     0.03011511f,  1.23162103f, -0.09618048f,  0.15077367f, -0.01735589f, -0.58433902f,  0.57141143f,  0.37596652f,
     0.39551598f, -0.45469373f,  0.70139718f, -0.70092553f,  0.29342854f,  1.09522784f, -0.49526817f, -0.28314885f,
     0.04982568f, -0.25173783f, -0.77533174f,  0.03428149f, -0.53115183f,  0.23679622f, -0.45971212f,  0.77496719f,
    -0.39162666f, -0.16103075f,  0.40675861f, -0.61543214f,  0.11372997f,  0.65357137f, -0.80374163f,  0.09231693f,
     0.12994140f,  0.39091143f, -0.61847538f, -0.66022831f,  0.26097077f,  0.14849234f,  0.12524642f,  0.17322411f,
    -0.34001237f,  0.11612685f,  0.14653623f, -0.35717571f,  0.93288726f,  0.23691647f, -0.59565175f,  0.32827681f,
    -0.48734084f,  0.39354229f,  0.57929778f, -0.41034117f,  0.48168805f,  0.20639047f,  0.41103008f,  0.94839650f,
    -0.12269406f, -0.37686807f, -0.44475722f, -0.40790513f, -0.03855085f,  0.17057599f,  0.13834541f,  0.41359162f,
     0.00650095f,  0.72676706f, -0.13232842f,  1.36008453f,  0.31283367f, -0.42857876f, -0.53544623f,  0.24123621f,
    -0.11173140f,  0.35700026f,  0.23661882f, -0.03641446f, -0.42339686f, -0.75742364f, -0.22325748f,  0.42819941f,
     0.10704687f, -0.62286937f,  0.08659046f,  0.19265869f, -0.44192871f,  0.07686255f,  0.02910436f, -0.57148516f,
     0.17889369f,  0.28039226f,  0.54152560f,  0.52690101f, -0.68883467f, -0.46891251f,  0.25751764f,  0.25689298f,
     0.25752383f,  1.92636573f,  0.28544524f,  0.56778282f,  0.47700089f,  0.32569563f, -0.15763462f,  0.37948462f,
    -0.38641262f, -0.11840931f, -0.24268177f,  0.04093707f,  1.15732932f, -0.93363261f,  0.34313008f, -0.80635792f,
    -0.23596594f,  0.54447532f,  0.03214001f, -0.53887236f, -0.35765186f,  0.33979887f, -0.36518332f,  0.10822929f,
     0.02278592f, -0.32580018f,  1.07197201f,  0.31695950f, -1.01257133f,  0.09322716f, -0.33089322f,  0.42621666f,
    -0.39626038f, -0.05736822f,  0.25249365f,  0.43287760f, -0.60014820f, -0.16725062f, -0.23747265f, -0.32666463f,
     0.88272715f,  0.20249085f, -0.63044196f,  0.45893097f,  1.06107807f,  0.51623261f, -0.75968498f, -0.24211703f,
     0.63345557f, -0.35383472f,  0.22190972f,  0.38731703f, -0.46346524f, -0.02976268f, -1.62063372f, -0.51219380f,
    -0.12628408f, -0.62389159f,  0.81620568f, -0.71507066f, -0.22002225f,  0.06537029f,  0.72063667f, -0.71793109f,
     0.58158189f,  0.00511653f, -0.49075434f,  0.23105174f,  0.09952985f, -0.30010843f,  0.03490104f, -0.19265680f,
     0.05675867f,  0.33106533f,  0.79300839f, -0.61890775f,  1.06651664f, -0.97604388f, -0.07589255f,  0.29415861f,
     0.14049594f, -0.31134975f, -0.10406113f, -0.24650046f, -0.29468238f,  0.42480105f,  0.17850775f, -0.34645480f,
     0.44979993f,  0.15364976f,  0.40643105f,  0.31481442f, -0.41449749f, -0.28009051f,  0.37364680f,  0.30518514f,
    -0.01045080f,  0.05866369f,  0.63883245f, -0.29578570f,  0.27354869f, -0.10109632f, -0.10884060f,  0.54938841f,
     0.41270816f,  0.40675482f,  0.65273941f,  0.01050192f,  0.34097648f, -0.15513338f,  0.16208318f, -0.06507153f,
     0.04849798f,  0.29757851f, -0.40911034f,  1.04619360f, -0.50300866f, -0.60709429f,  0.57905543f,  0.39583135f,
     0.31205991f,  0.31417274f, -0.00612339f, -0.44862717f,  0.03790228f, -0.33858085f,  0.48755985f, -0.07352869f,
    -0.41274861f, -0.16069292f,  0.20646572f, -0.28186229f, -0.41111019f,  0.12184361f,  0.12248328f, -0.25347158f,
    -0.23551916f,  0.11602497f, -0.72404218f, -0.70373189f, -0.35922211f, -0.10672358f,  0.15545379f,  0.73767811f,
     0.42882982f, -0.07996926f, -0.00950810f, -0.50126469f, -0.00925657f, -0.14432932f,  0.16135928f, -0.41361547f,
     0.25967327f,  0.76636946f, -0.05438007f,  0.20085587f,  0.34507200f, -0.20061024f,  0.11204624f,  0.00629620f,
     0.04883805f, -0.38650489f,  0.01225509f,  0.24899915f,  0.72557181f,  0.47963542f,  1.07659125f, -0.38367379f,
     0.43616033f,  0.09167100f,  1.09490144f, -0.40414914f, -0.41986093f, -0.29969633f, -1.06194782f, -0.26287752f,
    -0.37956634f,  0.07519689f,  0.17087799f,  0.93808544f,  0.47521192f, -0.28845182f, -0.44920734f,  0.24595958f,
    -0.66011661f,  0.91572940f,  0.58972007f, -0.23458783f, -0.85656726f,  0.67693621f, -0.05726992f,  0.61890817f,
    -0.79721385f, -0.29968750f,  0.00262185f,  0.02349030f, -0.22503273f,  0.31142497f, -0.53381020f, -0.07118974f,
     0.06014781f,  0.25721940f,  0.35580745f, -0.56232107f, -0.76705706f,  0.63883841f,  0.16615701f, -0.37424326f,
     0.77557600f,  0.05783732f,  0.58964860f,  0.03375924f,  1.03037393f,  0.87767041f, -0.12448207f,  0.48578548f,
     0.32268798f,  0.68431580f, -0.48246172f,  0.34302574f,  0.52921224f, -0.87936974f, -0.59162927f, -1.01961613f,
    -0.13470341f,  0.35877112f,  0.75117850f,  0.03704739f,  0.81430775f, -0.69005072f, -0.85169125f, -0.02777385f,
     0.19203272f, -0.01634737f, -1.03372109f, -0.04456002f, -0.65223473f,  0.33483627f,  0.18329912f, -0.46993989f,
    -0.25693345f, -0.52960676f, -0.03133955f,  0.47757116f, -0.49286303f,  0.25202325f, -0.26512882f, -0.39643642f,
    -0.05351518f, -0.51762116f, -0.27682465f, -0.59893894f,  0.98236257f,  0.01763178f, -0.34986275f,  0.10698996f,
    -0.05616403f, -0.11048480f,  0.30708334f,  0.37875384f, -0.26525056f, -0.28790912f, -0.13752584f, -1.15096056f,
    -0.75759554f,  0.68343711f,  0.82248384f, -0.12451802f,  0.28827849f,  0.15562508f,  1.53944039f,  0.55978745f,
    -0.06395879f, -0.47777021f, -0.80322313f,  0.10173181f, -0.37817538f, -0.71112686f, -0.32328644f, -0.54077399f,
     0.84357083f,  0.44081989f, -0.00398632f,  0.73997205f,  0.03868415f, -0.43064210f,  0.76156205f,  0.26945502f,
    -0.51862305f, -0.09516934f, -0.43780914f, -0.69139987f,  0.46308878f,  0.95470834f, -0.69928378f,  0.28148460f,
    -0.32532129f, -0.24356270f, -0.29619697f, -0.43199539f,  0.02426081f, -0.41547507f,  0.13522841f, -0.02511906f,
    -0.11947402f, -0.45378184f, -0.28838566f,  0.37769562f,  0.25045860f, -0.48877761f,  0.04966615f,  0.37569356f,
    -0.83470261f,  0.27168009f, -0.33131188f,  0.28529933f, -0.38162959f, -0.90244102f, -0.81377125f,  0.02404247f,
     0.12986125f, -0.45215830f,  0.31929624f, -0.83076000f, -0.03303990f, -0.60550809f, -0.32591805f,  0.02369934f,
    -0.43020669f, -0.19227777f,  0.50314641f, -0.28844595f,  0.41784605f, -0.56485343f,  0.26490209f,  0.72078431f,
    -1.23582220f, -0.39844763f,  0.28853607f, -0.10152269f,  0.18557294f, -0.30199260f,  0.04329490f, -0.07783861f,
     0.58389103f,  0.12721042f,  0.16880134f, -0.20593849f, -0.24380311f, -0.21627909f,  0.19722608f, -0.21049224f,
     0.14488743f,  1.03770041f,  0.43556234f, -0.16301176f,  0.60060698f, -0.20403768f, -1.01906228f, -0.50404316f,
    -0.93539596f, -0.17575674f,  0.00920919f,  0.83821863f,  0.16346368f, -0.10955027f,  0.41470280f, -1.10556769f,
     0.11780728f,  0.38543260f, -0.73929310f,  0.57187700f,  0.16924821f, -0.20764396f,  0.31639093f,  1.13534641f,
     0.09093313f,  0.12411030f, -0.22968045f, -0.42492220f,  0.41516790f, -0.42804191f,  0.03578312f, -0.23882872f,
     0.23948991f,  0.16683105f,  0.51876998f, -0.25500819f, -0.13493747f, -0.48938185f, -0.22214663f,  0.18865025f,
     0.37849432f, -0.46108267f,  0.43480295f,  0.67781895f,  0.20671745f,  0.93839788f, -0.38689461f, -0.62232733f,
    -0.88936013f,  0.74802214f,  0.32718283f, -0.02779233f,  0.13998431f, -0.56274450f,  1.22287595f,  0.06461059f,
     0.05469740f,  0.36288330f,  0.24050462f,  0.11194202f, -0.39523724f,  0.23573418f,  0.94101226f,  0.67271000f,
     0.79659331f, -0.25560784f, -0.49480242f, -0.06289346f,  0.02786246f,  0.54709578f, -0.84623230f,  0.76477516f,
    -0.07900395f, -0.21344054f, -0.50605220f, -0.82742834f,  0.41158530f,  0.03665898f, -0.64498043f, -0.64753938f
};

/* Class prototypes P [3 x 64] */
static const float demo_prototypes[192] = {
    -0.18824522f,  0.07328559f, -0.15484402f,  0.21220958f, -0.25177047f,  0.20515470f,  0.02551862f, -0.01169564f,
    -0.06589779f,  0.04826806f, -0.00455121f,  0.13342375f,  0.01381370f,  0.01817619f, -0.04397210f, -0.00688651f,
     0.03722288f, -0.20681292f, -0.16303784f,  0.08988391f,  0.02066298f, -0.02224935f,  0.00222924f,  0.04203352f,
    -0.06527385f, -0.09412141f,  0.02368383f, -0.11831591f,  0.04937054f, -0.20589568f,  0.12445714f,  0.05715184f,
     0.03096201f,  0.11883812f,  0.20140801f,  0.12266912f, -0.22261934f, -0.15474093f, -0.07556013f,  0.00315523f,
     0.06260119f, -0.08776516f,  0.02258595f, -0.09134946f, -0.07395165f, -0.17010939f, -0.11164781f, -0.16346100f,
    -0.11801364f,  0.12741829f, -0.11481206f,  0.31833744f,  0.05965758f,  0.02235248f, -0.10380234f,  0.08468939f,
    -0.06961264f,  0.01475481f,  0.30959439f, -0.01161665f,  0.13898313f, -0.08503605f, -0.00423120f,  0.21414526f,
    -0.08916850f,  0.25777000f,  0.10065787f, -0.07999514f,  0.08994228f,  0.13831861f,  0.08843504f, -0.22332045f,
    -0.10341488f, -0.03520259f, -0.01058607f,  0.08827321f,  0.02527299f, -0.18991530f,  0.05407249f,  0.08683871f,
     0.07961450f,  0.15371077f,  0.11860205f,  0.06530549f, -0.00997911f, -0.23622513f,  0.06110115f,  0.02953775f,
     0.03862448f, -0.18158169f, -0.15375000f,  0.14978147f, -0.00562561f,  0.09692437f,  0.00402750f,  0.00423198f,
     0.13344458f, -0.07339290f,  0.01367049f, -0.06574570f, -0.06179491f, -0.04397107f,  0.03159230f, -0.06808858f,
     0.17859611f, -0.12723282f, -0.02657725f, -0.06253942f,  0.20579204f,  0.02795441f,  0.14675096f, -0.21127933f,
     0.03798041f,  0.12652504f,  0.01170259f,  0.15153472f, -0.07356978f,  0.20044017f,  0.32695383f, -0.05160362f,
    -0.06336024f,  0.20670322f,  0.22464988f, -0.07436219f, -0.05975980f, -0.04007596f, -0.19121040f, -0.13065249f,
    -0.12713365f, -0.09721038f, -0.00439143f,  0.02965379f,  0.19630793f, -0.12640099f,  0.12462445f, -0.02709300f,
    -0.00626257f,  0.08543848f, -0.14214715f,  0.04841667f,  0.02107441f,  0.06234895f,  0.03661147f,  0.31086406f,
    -0.08074386f, -0.06722920f, -0.07889544f, -0.07032862f, -0.08069920f,  0.15054066f,  0.17984918f, -0.07226184f,
    -0.10538403f,  0.05968564f, -0.06991662f,  0.08013511f,  0.02569196f, -0.19190744f,  0.19592869f,  0.22737499f,
    -0.07758480f, -0.04908666f,  0.03619324f,  0.04234537f,  0.08337789f,  0.25451076f, -0.02240318f, -0.10107192f,
    -0.17463477f, -0.09254260f, -0.00419419f,  0.22720787f, -0.06553446f,  0.02833366f, -0.00207929f,  0.15046175f,
     0.31993338f, -0.06721297f, -0.06196763f,  0.13220057f,  0.08633387f,  0.23381050f,  0.07393079f, -0.04548975f,
     0.07478245f,  0.14037229f,  0.10388075f,  0.06422566f,  0.13505104f,  0.14804380f,  0.17499430f,  0.08213276f
};

/* Encoding bias b [64] */
static const float demo_bias[64] = {
    -0.03357847f,  0.16690215f, -0.02595913f, -0.15031430f, -0.02457431f, -0.02727236f, -0.26968867f, -0.00542949f,
    -0.02309345f,  0.06962064f,  0.18489562f,  0.11265650f, -0.02688887f, -0.11065259f,  0.25733599f,  0.00592184f,
     0.00139293f, -0.00241251f,  0.01980848f, -0.01443604f, -0.05736620f, -0.05468590f, -0.00327533f, -0.05434248f,
    -0.07128458f,  0.01064302f, -0.02549772f,  0.15039931f, -0.26509699f,  0.10915069f,  0.12460852f, -0.20733903f,
    -0.03426876f, -0.03714409f, -0.14075117f, -0.07778167f, -0.11105758f,  0.17522705f,  0.09356784f,  0.12715551f,
     0.07216721f, -0.11290518f, -0.05245203f,  0.04893745f, -0.12221278f,  0.07129984f, -0.02403254f, -0.03748208f,
     0.07109600f,  0.04442633f, -0.03609662f,  0.11593298f, -0.10810633f,  0.06159356f,  0.05931013f, -0.03095464f,
     0.03261330f, -0.12511136f,  0.09240270f, -0.01849021f, -0.05227230f,  0.10490092f, -0.07043437f, -0.14084613f
};

/* ─── 4-bit quantized weights ─────────────────────────────────── */

#define DEMO_WEIGHT_SCALE  0.2407957166f

/* Quantized encoding matrix [320 packed bytes] */
static const uint8_t demo_weights_q4[320] = {
    0x98, 0x9B, 0x88, 0xBA, 0x79, 0x77, 0x94, 0x47, 0x69, 0x65, 0xB8, 0x85, 0x78, 0x69, 0x77, 0x7C,
    0x86, 0xA5, 0x84, 0x58, 0xA8, 0x87, 0x57, 0x7A, 0x94, 0x97, 0x79, 0xAA, 0x67, 0x9A, 0x78, 0x66,
    0xAB, 0x8A, 0x97, 0x9B, 0x8B, 0x3A, 0x87, 0x84, 0x89, 0xB7, 0x67, 0xA9, 0x79, 0x8A, 0x77, 0x75,
    0x99, 0x88, 0x57, 0x76, 0x89, 0xC8, 0x98, 0x48, 0x8D, 0x89, 0x86, 0xAA, 0xA6, 0xB5, 0x9D, 0x67,
    0x87, 0x58, 0x69, 0x6B, 0x67, 0xA5, 0x8B, 0x58, 0x9A, 0x55, 0x99, 0x99, 0x78, 0x97, 0xC9, 0x69,
    0x6A, 0xA6, 0xA9, 0xAC, 0x76, 0x66, 0x89, 0x9A, 0x8B, 0x7E, 0x96, 0x69, 0x89, 0x98, 0x65, 0x7A,
    0x85, 0x89, 0x68, 0x86, 0x99, 0xAA, 0x56, 0x99, 0x9F, 0x9A, 0xA9, 0x7A, 0x68, 0x78, 0xD4, 0x95,
    0x7A, 0x86, 0x79, 0x68, 0x87, 0xC9, 0x48, 0x7A, 0x68, 0x9A, 0x67, 0x77, 0xC9, 0x5A, 0xCA, 0x57,
    0xB7, 0x9A, 0x68, 0x16, 0x75, 0xB5, 0x78, 0xB5, 0xA8, 0x69, 0x87, 0x87, 0x89, 0xB5, 0xC4, 0x89,
    0x97, 0x87, 0x7A, 0x97, 0xA9, 0xA9, 0x67, 0xA9, 0x88, 0xB7, 0x98, 0x8A, 0xAA, 0xB8, 0x97, 0x98,
    0x89, 0x6C, 0x65, 0xAA, 0x99, 0x86, 0x87, 0xA8, 0x67, 0x97, 0x69, 0x97, 0x78, 0x55, 0x78, 0x9B,
    0xA8, 0x86, 0x87, 0x96, 0x9B, 0x89, 0x97, 0x88, 0x86, 0x89, 0xBA, 0xC6, 0xA8, 0xD6, 0x67, 0x47,
    0x68, 0x9C, 0xA7, 0x69, 0x5C, 0xA7, 0x4B, 0x8B, 0x57, 0x88, 0x79, 0x68, 0x89, 0x96, 0x5B, 0x96,
    0xB8, 0xA8, 0xCC, 0x7A, 0x9B, 0x69, 0xA4, 0x64, 0x79, 0xB8, 0xB5, 0x48, 0x98, 0x48, 0x59, 0x96,
    0x76, 0x8A, 0x69, 0x76, 0x86, 0x76, 0xC8, 0x78, 0x88, 0x9A, 0x77, 0x73, 0x5B, 0xB7, 0x99, 0xEA,
    0x86, 0x58, 0x65, 0x76, 0xCA, 0x8B, 0x86, 0xB9, 0x68, 0x65, 0xAC, 0x59, 0x77, 0x76, 0x86, 0x98,
    0x86, 0x7A, 0x96, 0x8A, 0x59, 0x79, 0x64, 0x58, 0x96, 0x95, 0x85, 0x78, 0x67, 0xA7, 0xA6, 0x9B,
    0x36, 0x98, 0x97, 0x88, 0xA9, 0x97, 0x77, 0x97, 0x9C, 0xA7, 0xA7, 0x46, 0x47, 0x8B, 0x98, 0xA3,
    0x8A, 0x5A, 0x97, 0x9D, 0x89, 0x76, 0xA6, 0x87, 0x99, 0xA7, 0x76, 0x79, 0xA6, 0xAB, 0x9C, 0x65,
    0x4B, 0x98, 0x96, 0xD8, 0x8A, 0x98, 0x69, 0xCB, 0xB7, 0x68, 0x8A, 0x4B, 0x87, 0x65, 0xA8, 0x55
};

#define DEMO_PROTO_SCALE   0.0408692285f

/* Quantized prototypes [96 packed bytes] */
static const uint8_t demo_protos_q4[96] = {
    0x3A, 0x4D, 0x2D, 0x98, 0x69, 0x8B, 0x88, 0x78, 0x93, 0x4A, 0x97, 0x89, 0x66, 0x95, 0x93, 0xB9,
    0x9B, 0xDB, 0x34, 0x68, 0xA6, 0x96, 0x64, 0x54, 0x5B, 0x5F, 0x99, 0x5A, 0x68, 0xF8, 0xB6, 0x8D,
    0x6E, 0xA6, 0xAB, 0xA3, 0x57, 0x8A, 0x93, 0x9A, 0xAC, 0xBA, 0x82, 0x99, 0x94, 0x4C, 0x8A, 0x88,
    0xB6, 0x86, 0x67, 0x96, 0xC5, 0x76, 0xD9, 0xC3, 0x9B, 0x8C, 0x6D, 0xF7, 0x6D, 0xD6, 0x77, 0x35,
    0x56, 0x89, 0xD5, 0xB7, 0x8A, 0x59, 0x9A, 0x9F, 0x66, 0x66, 0x6C, 0xC6, 0x59, 0x6A, 0x93, 0xDE,
    0x67, 0x99, 0xAE, 0x76, 0x46, 0x8E, 0x69, 0x8C, 0xF6, 0x6B, 0xAE, 0xA7, 0xAB, 0xBA, 0xBC, 0xCA
};

/* Quantization error: weight MAE = 0.059581 */

#endif /* HDC_MODEL_DEMO_H */